02F
034
179
196
00E
02A
1DB
01C
1E7
1EE
004
023
05E
1E8
032
1AD
1AA
1EA
1CE
1F4
1D8
029
015
1D1
01B
1D6
03F
050
030
1B9
1AC
028
059
1F7
05E
1D9
024
1F3
01B
1FA
18A
021
1B4
1C2
002
06D
177
1DB
1B3
1CF
175
01C
00C
18A
069
045
06F
017
008
01E
1FD
1DB
192
00B

