1BC
199
065
03C
07C
1D7
034
17B
070
032
1C7
199
1A0
05E
1CC
081
087
05D
059
070
1CB
1D0
1B8
067
079
045
013
1DC
1AD
067
030
1CA
18F
1D9
1E6
038
1E3
176
01A
07A
06B
1D2
046
04B
195
1B9
02F
041
053
083
084
196
083
04F
1DD
1C5
1B2
185
1DC
1D9
1AF
044
078
1DC

