10
2D
09
F8
13
F7
0E
0F
F1
FD
DD
09
D5
E3
0E
D8
16
E6
E3
D2
F1
E9
1E
DB
29
1D
20
FC
27
F8
DD
00
22
02
EF
3A
20
09
19
D4
1E
DA
13
13
ED
33
15
C0
ED
1D
D7
F5
0F
F3
02
E9
10
2D
24
10
EF
E7
D6
E5
FA
0A
B7
E1
CD
26
ED
EE
FA
01
08
F9
F5
E2
06
E0
FE
2A
F5
0D
FB
36
E6
BD
DF
24
FF
D7
FA
FA
F8
DB
2B
17
23
27
1F
01
13
2D
DA
0C
F5
21
1A
21
27
C0
22
D6
EF
2B
F7
00
20
F9
34
F3
2A
E5
2A
1E
1C
1D
0B
11
C1
09
F4
D2
1F
E5
F2
2B
1A
EB
0B
24
E0
31
E2
14
22
D2
ED
15
0F
21
E2
E5
0A
1C
29
16
06
0C
E1
1E
D2
28
0D
13
E1
24
02
01
29
22
CC
27
26
CE
12
1B
23
DC
F8
F8
F6
E4
DB
31
21
FB
1E
08
F3
FF
D6
27
07
1A
05
D6
03
CD
DB
E9
00
0E
D0
00
FF
1C
23
E4
20
F1
F8
CE
1C
F5
EE
24
E2
FD
E0
CA
D0
32
1B
FB
E8
1C
E7
FD
D5
0F
13
EF
FE
ED
EB
05
FE
D1
CF
2C
FE
03
E2
15
ED
18
EB
F7
D2
4E
EF
30
11
F1
0C
E9
C3
2A
14
10
FF
CE
F6
1A
F3
23
CF
2A
FD
18
E2
DD
41
EC
ED
D1
25
29
EA
2F
FB
24
F4
0E
CE
F0
D8
28
E6
0B
D9
29
CF
E4
D0
21
E0
F1
17
02
DB
EE
1E
ED
FA
15
07
2C
44
12
EC
F5
D1
41
13
F9
FA
EA
02
3D
13
07
29
F7
CF
EF
D0
10
E9
E3
F7
06
FB
1B
E9
16
FE
2E
19
2A
49
F8
EC
1E
EE
0E
19
E0
DB
17
28
FC
18
17
22
32
E8
27
F6
E1
12
E8
DB
08
2C
13
07
35
D5
ED
0C
F0
D1
30
2E
2D
31
37
D2
ED
0A
2E
06
1C
A2
E9
F9
D9
19
C3
FE
FA
2D
18
E1
CC
2A
E7
1D
2A
2E
0A
E2
F0
0D
BD
F3
E5
13
D0
2C
FE
08
F8
F4
D7
0D
30
28
27
DC
2D
C6
2A
1C
1D
02
00
F9
3D
28
1E
EC
D5
25
FD
CD
2E
00
F2
E0
3D
F7
32
F9
DB
D4
CB
CA
EE
10
FC
02
EE
14
2D
ED
00
07
F0
15
08
E4
14
22
CD
31
09
07
0B
0D
FA
23
10
2F
14
EA
20
28
E7
25
2B
1F
DF
D3
DA
FC
F2
F6
22
EB
CD
20
19
E5
36
27
E1
2F
F5
F5
13
33
28
E7
F8
0B
DD
04
DC
28
FA
F5
0A
E4
D2
F7
F5
E4
FF
EF
29
E5
EE
D6
F2
2B
EA
07
2B
2C
DE
E2
F6
F3
F8
DD
1F
F9
14
D6
27
31
2D
DB
07
17
E5
1E
E2
D5
E3
D5
F3
34
E5
28
13
F0
FD
01
0F
2C
0D
1C
D2
F9
D9
F3
35
D7
33
F2
FF
1C
DE
C2
24
00
DC
0B
F6
F9
26
21
17
20
03
CC
12
27
2A
03
FE
F1
D5
EB
E8
D1
32
18
23
1A
F7
D8
2D
2C
E2
DB
03
27
0C
E0
D6
28
D6
E2
D3
FB
19
DD
36
EB
18
FD
F6
17
E7
04
20
F3
09
C1
D9
30
23
18
16
19
07
D5
F2
21
D0
23
1B
D5
D7
05
EC
26
E6
12
CC
19
D4
D0
1A
FC
2A
05
01
D5
2C
1A
E6
F0
F6
02
21
D1
D1
F4
13
FB
F3
EF
10
1E
FF
09
30
1F
2A
E9
09
12
17
DC
E7
E0
2D
E5
26
E8
11
2F
23
D2
04
0B
0C
FA
11
EE
F2
E3
27
3B
02
0C
27
E1
21
D6
D1
CB
C6
E2
0D
0D
EF
FF
3B
1F
CC
EC
DC
02
02
E9
F6
0B
DB
DF
21
03
27
E4
00
24
E2
15
F2
28
26
05
F6
0A
F1
14
F4
21
EF
F2
F8
22
D6
FC
F2
28
14
EA
D8
1C
D2
EB
D9
CA
EE
14
FD
F5
CF
02
07
DD
ED
D3
EF
00
F7
0D
DD
22
EE
0B
35
2F
C5
FF
EE
FA
DC
19
F5
C7
19
2E
E8
E1
E0
FB
20
E4
EA
B6
25
30
D7
17
DD
14
2E
ED
FC
F8
CB
DA
08
F1
E9
FF
D0
F7
12
00
F8
BB
1B
FB
E5
18
D4
E3
0F
FA
C7
DA
E7
E4
C8
19
EC
F0
D5
EF
2E
EF
1B
01
09
2B
F1
F6
16
1A
37
2B
F8
C1
0D
19
10
D5
27
E0
15
C9
F5
CA
0A
16
DC
1F
2C
0D
D1
D9
20
DF
01
20
1A
12
02
39
E6
1F
36
EE
13
03
10
00
06
D3
EE
28
E7
DD
0C
33
EF
1E
F4
E7
FD
15
20
06
35
EC
09
04
D9
F3
05
C8
1C
1D
0B
0B
E6
F0
06
15
16
00
0F
E7
EB
1A
EE
EA
DF
E9
00
34
F6
F6
22
10
E5
CF
F4
31
15
F7
D7
F6
E6
DB
28
FF
06
B6
0E
D0
25
DF
0A
E1
EB
09
EC
05
11
FD
C4
D4
C5
0C
23
F4
0F
F9
E5
1C
48
07
E9
0A
FB
FD
C3
EB
FB
BF
CF
3E
18
FD
EC
C6
20
D0
05
F3
DA
3F
13
E9
18
2F
DF
32
CA
18
17
E2
08
1B
19
12
E2
2A
45
EB
E0
DB
E2
EA
17
FD
DD
16
32
EF
EF
0F
20
D6
DE
FD
24
18
2A
0A
08
20
11
EC
E5
F3
B8
00
0B
FA
D7
FC
18
19
1D
E0
DE
04
38
FC
1E
1F
18
03
1A
1F
E5
DF
F3
24
0C
F1
D4
E2
23
FA
F2
19
F4
F2
1C
FF
2B
FF
E2
E4
1F
27
17
BB
D9
ED
23
E7
D5
DB
FE
D6
F2
24
30
FE
D8
F4
DD
21
23
E8
21
F3
E1
07
27
F3
0E
F1
0D
E2
1B
F6
0A
E2
EE
D3
CF
09
14
13
EA
EE
FB
21
20
36
D3
D5
FB
02
03
0E
2E
17
16
2D
18
2C
08
F6
EB
0C
14
F7
BE
24
E3
FB
E1
18
FF
1A
CF
E3
00
01
DB
21
0D
05
FE
F6
2D
1F
04
C2
32
17
DB
28
2A
1E
01
CA
18
D9
15
EA
CF
28
D6
2F
00
FC
11
E8
2E
04
E6
DF
19
FE
32
1C
02
25
1A
F5
DA
E6
0C
D6
D3
FF
ED
DB
FF
DA
D9
1F
03
CD
0B
09
E7
04
21
D7
10
2C
D5
1C
05
23
22
07
E0
29
0B
E9
FB
FA
04
DB
15
26
1B
00
2F
34
DA
1F
FD
DB
E0
FE
0E
0B
FE
0D
17
23
03
27
1E
E6
EF
1B
D4
DF
1A
DE
E8
28
EB
E1
25
2F
F2
1E
20
0B
0F
BC
20
1E
ED
11
0A
FD
E1
12
2E
28
C5
E5
F3
0E
DD
FF
1B
0C
33
D6
FC
2E
1C
F9
E2
23
09
DA
E6
1A
F1
22
F3
D0
04
0E
29
21
EC
04
D3
1B
D8
3A
CE
10
FC
24
27
33
F3
00
FA
F0
14
22
D5
29
20
CC
09
14
EA
E3
09
02
D0
12
24
0C
02
DF
DD
22
FD
F5
EE
CC
E2
F7
EB
20
01
E7
D9
1C
2B
1F
C4
00
D5
2C
0E
D0
24
DE
E8
F0
F3
2D
DD
F3
FD
11
FA
07
D5
F3
0E
0D
E2
CF
01
26
22
F6
29
1A
0C
1B
D2
33
E5
FA
F9
F0
02
03
DC
0D
E0
03
E4
39
F4
26
20
C1
FD
D2
18
FC
37
EF
E0
D1
1F
20
DE
16
12
EB
E4
F7
05
1F
0E
15
E2
D4
F2
E1
D5
EB
F3
0E
DC
1F
17
02
07
FD
DB
26
EE
19
E8
10
E8
28
25
3C
DF
2E
F9
32
0D
05
20
CF
06
F4
D3
E7
01
0C
24
E2
E6
E2
E8
C0
E2
FE
2F
C9
14
03
F6
D5
F5
EB
0D
0D
0C
FD
17
38
F9
EE
E7
F6
1D
E2
1C
C7
D9
D3
0C
03
D2
F5
11
1F
28
E7
34
2D
F5
03
CC
31
14
E7
07
EE
D0
F9
14
FE
00
D0
14
EE
C3
29
FA
CD
D8
36
0F
22
CE
36
C7
0F
10
DD
19
0B
2F
F8
E9
D8
39
06
26
C2
2B
F3
04
15
D3
1D
0B
3B
DA
11
F4
E9
0D
FD
1A
D6
EB
27
C7
38
1B
0A
13
F5
0B
17
D8
07
0D
09
10
16
0C
E9
33
2D
0A
14
25
C6
FE
DF
0D
27
D5
FA
1C
2A
CC
22
BF
09
07
AE
1C
DC
47
CE
F2
C8
23
26
EF
B4
F7
0C
C7
36
04
05
03
10
B8
D2
24
E5
0C
3B
D2
06
D5
09
F9
32
E6
0F
DA
1D
11
FB
F7
35
FF
17
D3
21
DB
EE
46
17
03
E1
E9
0D
1A
EB
23
EC
DA
DF
08
F5
D9
26
0B
20
E4
C4
0D
E6
FE
0C
08
20
05
47
D8
0F
16
00
BC
2C
F0
E2
15
0C
D7
DE
00
C8
F6
EB
F8
E2
CD
1D
E1
13
CB
DF
C7
24
0B
15
DE
00
F0
C6
F9
22
E0
F4
F9
12
05
DB
FB
F4
0D
27
27
29
EE
0D
D6
14
2F
2A
15
34
EA
09
DD
F5
EC
EA
D4
EA
D4
02
04
1E
14
0C
03
E7
F8
F0
F6
DB
E3
E9
CE
02
26
2F
F4
EC
DF
DB
0A
06
D1
E8
FA
23
E3
1D
2C
0A
03
21
FA
D6
F3
EC
11
1E
2A
F3
1E
F8
CA
30
DC
FF
DD
1E
CF
22
13
27
26
08
FF
F2
EF
1F
DB
F7
FD
0F
E9
FF
1D
1F
14
F0
E0
FE
EC
0A
2A
E6
23
F3
EE
E9
E7
E4
D6
EE
FE
01
DB
13
D5
D3
30
E9
10
14
E4
F9
F6
DC
32
13
EB
05
C4
0A
2C
17
09
D5
20
FE
EA
05
17
FE
F5
0E
10
00
2A
FF
EE
CF
1A
21
DE
FB
D6
0A
D8
DC
F7
DA
14
13
FC
F0
E9
2A
F8
12
35
1A
C6
D8
09
29
EB
E8
26
06
EA
FB
14
04
EF
29
E5
02
0C
11
FD
0E
28
EB
26
F6
20
28
15
FB
18
0C
F1
D9
0E
17
D1
D7
D6
32
1D
FC
E1
F0
F3
28
23
00
F5
F6
DA
E5
EB
1A
E4
2F
20
11
1B
19
DC
2B
F4
03
2F
10
F9
23
06
E9
08
CC
16
10
01
E2
09
19
EE
10
DF
15
D1
1C
0A
CA
02
0D
08
ED
FF
01
D9
C8
24
D2
ED
F6
09
CE
20
15
06
35
EE
37
F4
ED
0C
F8
DC
2E
DC
CE
1B
F2
19
D3
0D
F1
0E
1E
DA
0B
F0
FF
10
FF
01
E3
05
F6
D7
E2
DD
30
F0
06
E6
12
1C
0C
FE
05
2B
25
DA
F9
F6
2F
E0
17
29
03
F3
E1
2E
2A
05
E2
D7
38
14
10
F5
20
23
25
E6
15
FB
0C
23
08
1B
C9
37
DA
19
C7
03
F8
FE
D4
2F
1C
27
FF
05
01
F0
E8
E3
EB
25
07
2D
0F
F4
E2
2E
2D
CA
08
0F
DA
0F
E9
D4
D0
0E
33
0A
16
13
D7
ED
0B
F1
EE
F6
01
D2
F4
F6
FF
CB
DF
1C
16
1D
F2
D2
EC
18
13
D7
E3
E0
F7
25
E8
20
D1
2F
EE
40
DD
E7
38
2E
E9
1B
CE
E6
01
ED
27
38
0E
F9
0E
00
BF
D6
30
12
2C
F6
F0
2E
39
CD
CF
1E
20
D1
1F
DA
E3
23
0E
2F
FB
0B
00
0F
D0
A4
6C
26
E8
EB
27
20
21
CA
D9
05
FE
06
E9
F9
01
14
1B
16
D4
E9
25
29
E1
00
15
21
10
1A
F5
D5
1D
DE
E1
33
19
18
F4
16
F5
EE
33
E9
0E
E8
C7
0F
0A
E4
29
F1
D1
DF
DB
D6
14
F2
F5
07
31
DC
D8
F4
09
0C
E3
C8
E1
24
3A
05
33
1F
E8
D4
ED
13
E4
10
EE
12
2A
1E
EA
EA
FF
B6
E2
22
0F
FB
03
E5
D7
DA
EF
EE
CD
18
D7
E7
DF
05
C5
FE
EB
18
1D
F3
F7
03
3A
1F
D3
D2
10
04
EB
DA
E4
CD
DA
39
38
FD
01
1F
DC
E4
F1
17
1F
21
E6
26
DF
28
DA
29
EB
07
F0
0B
24
1D
1D
CD
28
10
40
E1
FC
04
27
00
1D
16
24
E6
F0
D9
28
06
FD
F2
E9
DC
D2
06
FE
2F
0C
04
DD
0B
1E
E2
21
01
D8
2A
19
03
E4
15
F8
36
E2
06
26
0B
03
F0
F9
DF
2B
19
D4
EA
24
0D
F5
18
07
C2
13
0C
23
D2
10
ED
F8
DD
DB
1A
2D
0E
0E
F8
E8
13
05
25
DC
35
EE
0D
10
20
DC
F0
05
FC
01
34
D3
18
FC
4B
15
E7
F2
24
15
20
1E
2B
F8
DD
ED
F4
20
29
F8
0C
F2
CD
34
13
D3
28
26
29
01
01
E6
D1
12
0B
2B
E4
F7
E1
F8
1E
1B
FC
17
05
22
E7
21
1C
D1
39
11
FA
E9
D6
E8
C8
32
EC
41
DD
38
04
E3
EC
E4
21
BC
F6
2B
D7
FC
29
11
32
D8
06
23
D8
E5
D0
2D
22
14
F7
1D
FD
E4
19
1A
F8
FC
25
16
F5
E6
1A
E0
07
15
0C
30
18
DB
2D
EB
0E
EC
FD
0B
FD
1B
DD
1C
2F
FA
18
F5
30
1D
D8
E6
F3
EE
2A
F1
EE
02
14
15
FF
E5
50
07
DD
EA
F7
D9
F7
EA
1A
EA
D5
E0
DB
2E
08
4F
2C
2C
D4
D9
15
19
E3
E9
08
E9
06
D9
29
D9
D4
03
EB
F4
F9
F5
E5
F5
E7
E8
10
DC
2D
F8
2B
09
2D
2E
D4
DF
DD
25
C9
2A
D0
DE
FD
EB
1D
05
2A
10
05
FA
EA
FE
E8
19
20
0C
E7
19
D7
DD
F1
ED
EA
11
36
05
E5
0F
22
DD
FE
DA
28
E9
F1
D4
28
2E
03
1E
15
1E
D7
E4
1A
E8
FD
1F
24
EF
0E
00
E2
D3
F6
FA
DC
ED
E5
D6
21
F3
CE
03
DD
15
2C
E1
2B
DD
FA
F4
E5
E2
22
0E
2F
2A
DA
E1
E8
E6
E6
D5
FB
EA
C0
C7
3A
DE
D5
D3
FF
C5
23
06
11
E9
E0
0A
D1
21
DF
E8
04
E4
E6
D8
FA
E8
E9
02
FA
13
E3
01
09
E5
E0
E7
3F
EE
E7
EA
F6
FE
F8
FF
FF
EE
FA
1D
0F
38
0D
E9
FB
F5
D0
2B
30
FF
1C
22
F0
1A
1D
28
29
F4
C8
DE
E2
F0
1E
09
34
05
CA
05
07
E3
27
EC
E9
FE
15
12
10
D4
FF
23
1D
33
C9
E5
16
F7
CD
DD
1F
21
22
F4
2A
08
1E
2E
EC
1B
F7
DC
EF
45
F6
EF
D2
1D
F6
F5
FE
CC
DE
00
FD
EC
DC
0E
0A
07
EB
01
EC
23
F6
1A
00
37
16
07
E8
09
E6
CE
DF
33
D7
0D
E9
17
20
CD
EA
ED
1C
DE
12
06
23
D3
20
1D
1A
D9
3A
F3
2F
35
F3
EA
0A
11
21
E6
F8
ED
06
1D
FA
F8
D7
2C
E9
2D
05
E6
F4
D6
FA
EB
FD
29
1C
CE
E3
29
FC
10
11
E4
2F
C3
E0
E5
D1
AB
F2
29
D1
D1
1F
C5
30
F9
CD
CE
EF
D8
21
3A
13
27
30
15
F3
46
D0
FE
15
01
EE
E1
DA
0D
0E
F1
21
ED
22
DD
0D
11
F8
D1
F0
0F
1C
07
0D
FF
C8
18
32
04
2A
15
30
F9
DB
E7
35
02
04
E7
E0
02
E4
04
EC
FB
13
1D
23
1E
2F
CB
FB
11
F5
E8
FC
24
24
34
DF
EE
DA
46
DA
F1
0C
1A
D4
DF
1A
DE
D5
23
F9
0E
00
26
2D
22
F7
13
24
FB
0E
CD
27
24
E0
E0
EA
F2
EF
32
0B
CB
2F
D2
2F
C9
E6
24
3D
C3
17
F0
FE
20
4A
F5
E0
EB
1F
F6
32
1D
F9
20
FE
41
20
36
F0
01
F0
0F
17
E8
CD
DE
EA
09
0B
EC
FC
CF
0B
28
2F
17
FD
EC
13
E1
04
E6
F2
3C
0E
FE
0E
E5
DA
0D
EB
E3
0F
FE
FD
E4
1F
30
F2
C9
05
E3
EB
FB
0E
38
D7
2B
3A
EF
2F
E0
25
CF
DC
FE
06
14
34
E0
08
0C
F6
04
E9
16
14
EF
F8
F7
E2
0B
D0
D4
10
04
3D
F7
F5
F0
3C
CE
EF
0F
E8
21
F5
EF
18
E2
E2
0D
E7
D4
18
24
1B
27
19
07
F2
FF
F0
23
2A
E5
D7
EF
10
41
08
04
10
F4
0E
E3
1B
FD
29
DC
EF
DE
2E
F7
EA
FA
E3
FB
F2
F5
DA
25
E2
E1
03
0A
07
19
27
10
49
1C
E0
0F
25
1A
05
18
E2
00
FC
35
D9
D7
EB
0B
0A
20
F9
0B
26
E9
DA
01
D5
08
25
F3
28
02
FF
12
E7
F2
13
0C
FB
FF
2A
D8
C4
1F
0C
F9
12
FB
FB
08
05
06
EF
1B
E4
23
18
DE
2E
EF
CF
2B
0A
20
E7
D5
EA
DE
E3
FC
26
02
C9
2A
FE
DA
25
DE
12
E0
12
D3
EB
F5
11
D6
0B
01
D6
29
F5
0D
30
2F
DD
F7
0B
EE
05
0F
1E
41
11
E8
FE
16
D1
1E
F8
2C
ED
16
06
2B
EE
2A
15
F9
FC
2C
22
12
DE
DF
DD
2C
24
2F
D3
02
23
FC
15
01
25
15
E6
25
04
02
D4
34
0D
CE
29
19
17
F0
06
C6
F3
24
00
EA
3B
13
EF
03
F2
1E
ED
C3
27
D3
07
F8
0E
D2
27
20
E6
D2
E8
1B
00
00
0D
22
36
E8
C4
27
DE
27
DF
EF
FB
E4
D9
E4
E1
34
3C
E5
FC
02
EF
26
2E
1F
E4
DC
EE
1E
0C
05
2B
09
F9
E2
F2
DC
25
1D
0D
0E
2C
F4
2C
2A
23
01
35
E0
05
2A
1D
24
F8
15
F1
DD
DC
FB
F2
13
14
2D
FB
07
21
F2
2F
F3
05
E3
D3
11
F0
F5
11
27
C5
15
23
19
02
EA
33
F7
07
FD
29
21
F2
E4
EC
E5
FC
04
26
0F
23
E4
16
FC
29
07
07
22
14
EE
F4
31
E6
04
F5
0B
26
15
F9
23
31
F0
0E
E1
11
2B
EC
E1
03
F8
02
D0
21
D0
E8
CA
09
04
DA
29
E9
F2
24
00
DF
DB
E2
F0
D9
35
29
E0
09
3B
EC
FC
17
0D
DB
01
E6
F0
C7
33
2B
15
E2
21
FB
E4
23
ED
26
EA
F3
D6
F8
E3
07
EF
12
25
1D
D7
16
F6
34
00
18
27
0F
CE
26
E9
0C
0A
07
EF
CD
21
19
33
E2
E2
0F
29
EE
28
FC
1C
E8
32
C1
1B
28
DA
35
E6
14
D4
36
15
F5
E9
2C
F5
06
28
07
1D
2A
E9
F6
E2
EB
1C
01
E6
1A
CD
1D
00
F7
C7
F7
02
21
DB
FE
E1
3A
0B
11
CE
18
F2
F5
DE
1C
11
DF
2F
22
0E
48
3B
14
F2
06
11
F3
02
D4
F2
E4
ED
1B
11
ED
DA
ED
0D
F1
DE
15
FD
29
0C
07
2D
F0
0B
E9
DB
28
D4
E5
FA
3A
E7
0E
FE
1C
1C
09
DD
F9
D5
EE
DC
D8
DD
0C
25
11
22
FB
CF
13
16
0C
25
FC
25
F6
1B
E7
EC
FC
0F
16
FF
29
F0
D6
14
1B
38
C5
D2
DD
EB
13
DC
E8
D5
0C
28
14
37
0E
42
02
2B
2E
14
1F
E0
FB
E9
C5
F0
01
DC
0E
CD
18
D8
29
CD
20
D9
28
1C
18
15
04
E0
31
DB
F4
17
1B
FE
FB
0F
15
D9
0A
2B
0F
EC
D4
E6
E5
14
22
0F
0D
11
FD
F3
04
D5
E1
DE
27
18
1E
30
2A
27
C3
1F
D6
14
ED
32
16
CE
15
CB
F8
15
30
E6
04
0E
28
13
1F
D0
23
FD
27
F8
FF
EE
15
FA
E5
2B
1B
FF
20
02
27
EC
14
F7
DA
01
37
1B
0A
37
22
F5
05
04
D6
08
EE
C8
03
E3
0A
E1
32
FC
19
01
35
1C
DE
0B
FF
FA
2A
18
FD
0F
D7
22
33
E5
EE
CF
F4
00
1F
E0
27
ED
EF
D7
02
D0
FE
AE
C7
CB
E2
35
D5
0B
F2
FB
EA
14
0E
1D
02
E9
02
FE
D8
1A
E3
FB
46
2E
E7
20
28
FE
EE
29
C2
1E
F9
ED
E1
EE
20
2A
F9
FC
36
19
C5
FB
D4
C8
FD
0C
F3
10
F3
20
18
EA
37
FF
39
DA
28
C8
23
DA
0E
D3
08
0B
E3
FB
08
C3
2E
3C
D7
05
04
2A
25
DC
B8
E3
EF
18
21
F5
F1
27
EC
FC
C2
EF
E7
EC
1E
F7
E1
F0
E6
F4
E0
DC
1E
E9
EA
C9
02
F7
C9
03
C0
C8
0B
ED
25
F6
1C
10
15
14
FB
F9
05
E5
E1
FE
EB
14
3F
05
2A
B4
0D
20
ED
FD
01
2F
F6
F5
38
06
FF
F3
D0
34
18
2C
EB
F3
10
2D
E8
25
1B
DB
C8
12
2F
0B
BE
2F
DD
0E
09
D5
FF
F0
1E
0B
E6
0E
F9
FC
15
E5
FB
DC
09
13
EA
DA
EA
E5
2A
15
F0
D3
31
1C
E8
FF
0C
10
FF
B9
B0
22
24
11
33
D4
0F
22
DE
DA
FD
1A
C2
2C
EB
EA
BD
F8
F8
06
D8
F1
28
26
24
F9
25
40
D9
E8
F7
EE
E0
DD
F2
2A
D7
F1
17
D5
2F
D7
FD
09
22
FD
01
EC
12
2A
E7
20
00
28
2B
28
29
17
0F
38
EA
1D
16
C7
F3
1E
EB
DA
23
0E
0D
25
D0
E6
E1
DA
DE
13
17
2B
05
18
F8
05
FA
EE
18
E6
DB
0B
1A
0D
14
C9
09
E8
CE
F3
2E
C9
EA
EF
D0
1F
08
FE
FF
04
EC
FF
BB
0B
DD
F2
FB
CB
29
16
D6
29
1C
0D
F9
CD
1A
F3
0D
C8
FA
1D
11
FA
25
CE
1A
36
E0
DF
CF
EF
EE
19
FD
EC
E4
CB
E4
18
3F
FD
08
EE
31
0E
EC
DF
10
02
18
06
B9
19
DF
0A
24
F4
23
ED
3A
27
36
DC
E0
DC
C5
EB
17
2B
EC
19
F5
25
26
1D
1E
22
14
F0
F1
36
EF
D7
39
06
FF
D8
20
EE
FA
F1
1D
F3
E2
0D
CE
25
2E
F4
EA
1A
F5
CB
22
19
F3
D4
0A
F0
F1
09
13
CE
0D
DB
06
DD
EC
C2
DD
09
EB
F6
02
E9
02
1C
2A
DA
DB
EB
E7
33
0C
11
BA
04
DE
10
11
04
E4
CB
FB
0C
F8
1C
17
2F
04
EA
F9
1B
F1
26
F2
FB
1E
2F
11
F3
2F
32
F9
0F
34
1A
30
1A
2D
23
CE
23
1F
EA
3E
DA
09
0A
0C
0D
25
15
03
D4
E2
D4
0C
1D
40
3D
DD
11
EA
1E
DB
2D
18
D9
B6
FE
2C
F4
14
DD
E1
F9
30
03
EC
F1
24
02
18
EE
D4
26
E6
02
E1
D7
19
E8
08
F8
1F
EA
13
F6
EB
1B
E9
DC
1F
F4
22
FE
14
F4
00
D9
08
11
EE
1F
E8
30
30
15
38
11
0E
E0
2E
03
F7
2E
05
E8
E6
04
31
15
17
CC
03
1F
0E
07
DE
0A
1C
0C
E5
97
CE
EB
DA
25
FD
20
D3
3B
FB
CE
04
E8
E2
01
FE
E6
06
EC
27
F5
F9
F9
C1
E7
3E
27
20
15
40
FA
11
D7
05
E0
20
42
FB
F3
FB
DD
F8
38
0B
FC
03
18
0F
CD
E2
21
01
E5
15
1F
00
EC
3C
0E
19
E6
41
CB
09
D8
F9
F6
F5
02
EE
E0
C9
D8
17
D9
27
06
0C
1A
F1
0D
20
E3
F3
F6
FC
E5
F2
29
DF
26
DE
E5
D0
2E
DB
F0
0E
DA
CA
26
FC
FE
03
FE
D2
F8
D2
F5
FE
16
07
D3
E7
27
EF
05
4A
0D
E6
D4
1A
00
E7
0B
24
D2
2C
0F
07
CA
EA
06
E9
43
01
C0
ED
F7
F3
E4
D3
F1
0F
FB
1A
07
17
FC
33
0B
D3
D8
14
28
C6
FF
D1
2A
CF
DC
00
07
E4
12
0A
1C
01
F6
B0
0B
DC
ED
EF
F9
29
DB
E9
F7
03
D8
08
CE
1C
FE
2B
FC
EE
2C
F5
F9
FF
23
E9
F5
F7
2E
11
DC
EA
F9
2D
F4
01
21
05
E4
2E
16
D3
0E
F3
DB
04
F0
D3
0E
FE
E9
DA
D0
10
F6
13
13
0F
D7
09
29
CE
F2
06
25
F9
04
0E
FD
26
0E
08
CC
25
E4
04
1A
04
14
DE
0D
04
E5
DC
43
16
DE
D8
03
BD
DF
0C
FA
10
09
0C
DD
20
D3
01
DC
F2
0E
23
31
E2
F0
E2
14
D1
F5
E4
D0
29
30
35
2B
CA
E9
33
DC
EB
22
01
2F
DF
24
E2
0B
11
D8
06
EE
2B
26
37
E6
22
22
D5
26
00
1E
D6
F1
F1
1A
17
06
EF
17
14
D8
E0
0F
2B
20
D5
D9
D4
16
FB
FB
EB
21
15
F2
D2
18
ED
21
FA
0C
F3
ED
EC
DD
17
E1
19
F9
1A
0D
3B
F1
14
3A
D0
29
27
04
F3
22
F4
13
30
F6
EA
D8
17
F1
EC
35
EC
EE
E7
34
DE
EC
CF
16
E6
FA
EA
3C
E6
ED
EE
1A
F5
CA
1A
DA
C8
23
D1
10
BF
F7
EC
00
D9
02
2A
16
F2
DA
E3
F7
34
08
EA
EA
07
00
51
FC
FF
0E
FE
ED
CE
F0
CE
D9
E0
1D
3C
1F
26
D4
E4
EF
15
FB
1B
EB
11
E5
F3
2D
11
00
D2
29
F7
C8
ED
13
D8
E0
20
30
06
E6
E7
DB
02
37
08
16
0F
E4
D4
0D
F0
12
16
11
21
F4
CF
23
1E
D1
F2
F3
09
C4
29
08
06
EF
0E
29
C7
F6
F3
26
F7
D9
F4
0D
25
E2
17
02
DC
20
2B
28
D2
F2
BB
FB
D8
28
DB
E5
28
E8
31
21
28
2B
BB
2F
18
E8
CF
06
F9
15
E6
DB
E8
12
E7
18
02
03
05
EA
28
E9
F9
D6
F9
EF
F3
05
D3
F3
4A
ED
1E
01
11
DF
D9
19
C9
23
2E
0F
03
15
11
DF
E7
46
E3
12
E8
27
D6
26
DD
D7
E0
CF
DA
EC
F3
FE
2E
34
FB
DF
B0
EE
FD
1A
05
0E
29
02
F7
CF
01
20
18
F6
18
1C
04
F1
28
29
EF
1E
19
F3
29
E3
08
D4
39
10
D9
0B
D7
1D
F0
18
D8
03
FC
1E
DC
11
12
16
E3
10
18
0F
1F
E5
1A
08
E2
05
2E
CA
F0
10
DC
07
F8
27
DA
DA
FC
16
DF
34
C2
12
E9
10
FB
E5
05
11
EF
1A
1D
0F
ED
18
FF
35
ED
1F
10
06
15
27
E3
CE
26
39
E1
2B
19
1F
F6
02
06
F1
DE
25
E7
1B
F4
36
F1
15
37
F7
EF
1D
09
0D
0A
E7
20
2A
F4
CE
D6
DB
39
F8
15
19
FC
16
1D
37
E3
FE
18
D1
DB
15
E4
EB
1D
FC
0F
02
F7
1D
15
08
27
28
DA
EB
14
15
06
0E
F4
E0
E5
FF
EA
17
C9
38
03
F8
06
D7
D0
DF
0E
16
DE
DF
EF
F4
26
1E
26
1F
F6
C8
29
E6
24
F7
30
E9
09
29
FA
FA
DD
DE
E4
13
FD
12
1A
EF
02
EA
E6
D9
13
E1
37
14
10
01
4B
08
ED
0D
28
0F
05
EE
E7
13
1C
28
14
11
11
03
06
3A
DD
F7
07
FD
C2
DB
CC
05
14
24
38
EE
08
EA
13
21
31
C9
08
F3
31
EE
2F
37
09
0C
20
13
E7
16
FA
E9
2B
F0
02
EA
20
CE
06
00
1D
19
2E
FC
2C
02
04
09
DF
24
D9
1F
2C
29
1A
FF
C0
F1
22
21
EB
05
F7
DE
23
CC
D7
E7
11
18
E2
E9
21
F0
F3
F2
0C
20
F7
04
E1
E7
D9
1A
E6
FF
DD
41
EF
FC
04
E7
CA
FF
24
E9
17
28
CE
FC
00
29
EF
EB
0F
F7
14
16
EB
D1
0A
2C
0E
00
FC
F2
2C
28
DF
FE
CC
DE
E5
F3
17
27
E8
EE
E9
28
E4
04
2D
16
0D
F8
F5
D7
07
2E
FC
D5
06
D7
08
2C
FF
FE
1A
1C
D2
E2
D9
23
DF
23
E8
32
DF
0A
0C
E5
C0
C7
D3
17
FB
DC
2E
F8
CF
E4
EE
D5
FB
29
08
DF
33
08
20
E0
19
20
EE
F4
18
EC
0C
25
DD
0B
E0
13
CC
DA
1D
20
D9
1B
01
FD
2A
21
E5
D8
21
FB
D5
DB
FB
10
23
24
D9
D0
E4
21
19
31
05
1F
E5
16
24
D4
DD
F2
D5
20
C0
26
10
FF
E4
07
D3
F0
EC
F6
F9
E6
F2
03
E7
07
F6
DB
17
E3
D5
F3
0D
0F
E4
05
F2
19
10
F1
25
D8
3B
D1
2A
D7
F2
F1
2B
D7
2F
F8
DF
17
21
1A
D0
0D
29
F0
E4
E8
2D
20
DA
F0
FA
B9
1F
2F
DC
1A
E4
D2
F9
32
02
2E
07
1F
F1
FC
02
D9
04
E5
36
F0
F9
1B
27
CD
29
04
25
F7
0E
1D
EB
F4
07
00
E9
1A
DD
31
35
D6
D8
DD
37
D7
F9
36
FF
11
00
07
E0
E7
24
E0
1F
EA
2E
2D
FD
39
D5
FE
31
F4
D5
E2
3A
40
0E
D9
27
1D
10
06
FC
F6
07
38
D4
DE
BC
1D
21
D5
20
E1
EA
BD
24
F8
1D
FF
0D
E4
B0
11
FE
F0
00
1A
B1
ED
0D
07
FB
18
F6
D3
D9
0A
FD
32
D5
FE
16
10
FD
EA
D7
F0
41
D8
14
54
C4
1B
EB
EB
DE
20
06
F7
25
F6
F8
EC
2C
22
F9
2B
F0
27
20
F1
CE
D6
F4
12
FA
DF
FD
D9
14
FB
0A
2F
20
2A
F1
FD
D6
1C
04
DC
08
0B
08
F7
20
E7
FF
F3
F4
2F
1C
2C
2E
F3
F1
17
07
F7
DE
1D
0A
01
D2
4E
07
09
06
05
C7
12
1C
60
36
F7
12
06
2B
08
2E
EF
FB
1B
42
30
DD
29
E2
DC
0D
22
0C
22
52
34
F8
19
DC
D9
2D
3A
2D
C5
1B
02
CB
FE
F8
2B
11
0D
1A
24
27
F5
E4
E5
02
0F
FB
F4
FF
FF
2B
2F
E4
15
09
E7
04
24
17
2B
F1
FA
16
F8
02
25
29
D4
20
FE
18
05
14
17
2A
2E
22
1B
E5
24
D6
28
27
D6
BE
2B
C9
D7
17
02
18
14
02
02
ED
06
FB
16
07
D4
D6
DB
1A
E6
FD
26
E7
2E
12
D6
0B
F1
07
25
1F
35
E3
E5
24
34
E7
1E
FD
0F
FA
EC
08
17
25
07
43
D9
19
24
2D
E5
1D
E0
F9
30
18
09
0D
0E
E2
DA
D1
D4
0D
27
11
F1
15
02
EF
20
36
05
EB
08
E3
22
BC
2D
0F
24
FD
03
06
F1
0C
23
E0
27
2F
D7
15
1F
EC
3D
3B
1A
23
39
18
0F
2F
F7
F4
F5
1C
E7
E6
06
0D
16
29
03
11
EB
FA
2E
0D
34
18
E4
FC
03
09
30
0D
27
D7
2F
09
28
0F
24
3A
E2
09
F8
21
FE
E2
FC
13
29
27
38
1C
E7
EC
0B
2D
17
0D
1D
2B
E9
1E
E6
17
E6
F6
24
FD
2D
2C
25
10
0A
12
12
31
CB
23
03
13
24
D4
26
12
1D
EC
0C
EE
E8
1A
28
23
28
27
CD
FC
2C
C8
04
D3
21
ED
19
16
1F
09
EE
EB
26
3E
DE
DF
38
E7
22
2B
02
29
DF
F4
05
F1
18
E2
17
FB
F2
31
F1
1E
EA
2E
2D
FF
D8
11
2B
04
27
B1
0F
07
CC
F1
10
25
DE
33
12
DE
D6
F6
1A
2B
23
07
0A
18
00
DF
10
BB
11
1F
F8
03
FC
D5
1C
2D
20
E2
DC
FF
06
CB
16
E0
08
F2
08
19
F9
21
FB
0E
FF
E0
F8
D0
F7
18
DE
07
23
14
FB
F1
17
23
CB
E0
E8
05
E8
2C
08
1F
D5
0B
2B
D9
D4
03
15
0E
DD
E5
09
DD
E1
25
F0
E9
30
1A
32
30
CB
EF
F5
C8
12
F9
D3
0B
F8
E1
E8
CB
DA
D7
05
02
EE
1A
1B
33
25
E9
DA
0B
29
F5
EE
14
08
25
E8
EC
EE
37
0E
10
DE
30
28
FF
DB
25
1C
E4
31
29
FC
EB
E9
17
13
E6
F1
06
E2
01
24
D0
D0
FD
C8
06
D9
20
D6
EE
F9
F3
21
21
10
22
2D
0A
0E
1F
18
E1
2C
0B
2E
EA
01
29
FA
EC
DF
28
DB
F8
FE
E5
E9
FC
23
F5
2B
DF
02
09
1F
2F
01
09
12
2C
EB
1F
26
FE
32
0A
CD
EF
ED
D0
20
C4
F0
04
1E
15
07
2F
EA
27
33
0B
32
0A
D4
C2
F5
E4
F2
2F
F3
00
24
10
13
D9
F8
0D
05
F9
EF
FF
09
FB
D5
DA
D1
14
15
0F
2C
0E
0A
CE
F1
DB
D9
2B
27
04
08
F5
58
F5
E8
4A
00
15
EE
ED
2B
22
25
21
F0
F5
27
E1
E8
C9
00
2C
EE
05
30
D1
36
F8
D2
10
FA
03
E0
F3
F7
DC
F7
3C
05
E1
18
12
E1
D4
F7
C7
0A
04
1B
11
1E
F5
09
D4
29
D5
22
1B
08
F5
E6
0F
09
F0
3B
31
1F
E1
E9
31
E9
30
E2
FE
00
0D
20
45
0D
CC
E3
13
E1
17
07
06
08
28
37
E3
FC
04
C1
2C
1F
18
1E
F7
F1
E4
FF
02
04
0A
36
00
FA
21
E0
14
03
18
DA
EE
F5
FD
F6
FE
07
E6
F2
07
DF
F3
EE
E3
38
0A

