1FB
064
1D0
1C3
01A
080
1D0
008
1E8
1E5
056
06A
016
1FF
1CE
1D2
1C0
1BE
025
1A1
1F1
009
031
004
003
18E
1F1
1FB
014
1B8
1BC
054
060
1D9
006
1C3
001
016
1F6
1F2
1C4
05E
1FE
1BE
02E
00F
1EE
1FC
19A
1DD
1BB
01B
1A6
19E
1FD
02E
010
037
031
1D3
015
1B2
1C9
007

